unsigned char _home_ee2405_ee2405_mbed07_model_model_quantized_tflite[] = {
  0x20, 0x00, 0x00, 0x00, 0x54, 0x46, 0x4c, 0x33, 0x00, 0x00, 0x00, 0x00,
  0x00, 0x00, 0x12, 0x00, 0x1c, 0x00, 0x04, 0x00, 0x08, 0x00, 0x0c, 0x00,
  0x10, 0x00, 0x14, 0x00, 0x00, 0x00, 0x18, 0x00, 0x12, 0x00, 0x00, 0x00,
  0x03, 0x00, 0x00, 0x00, 0xf0, 0x1a, 0x00, 0x00, 0x20, 0x13, 0x00, 0x00,
  0x08, 0x13, 0x00, 0x00, 0x34, 0x00, 0x00, 0x00, 0x04, 0x00, 0x00, 0x00,
  0x01, 0x00, 0x00, 0x00, 0x04, 0x00, 0x00, 0x00, 0xc0, 0xe5, 0xff, 0xff,
  0x08, 0x00, 0x00, 0x00, 0x11, 0x00, 0x00, 0x00, 0x13, 0x00, 0x00, 0x00,
  0x6d, 0x69, 0x6e, 0x5f, 0x72, 0x75, 0x6e, 0x74, 0x69, 0x6d, 0x65, 0x5f,
  0x76, 0x65, 0x72, 0x73, 0x69, 0x6f, 0x6e, 0x00, 0x12, 0x00, 0x00, 0x00,
  0xc8, 0x12, 0x00, 0x00, 0x78, 0x12, 0x00, 0x00, 0xa8, 0x11, 0x00, 0x00,
  0x8c, 0x11, 0x00, 0x00, 0x3c, 0x11, 0x00, 0x00, 0x0c, 0x11, 0x00, 0x00,
  0xfc, 0x09, 0x00, 0x00, 0xf4, 0x09, 0x00, 0x00, 0xec, 0x09, 0x00, 0x00,
  0xe4, 0x09, 0x00, 0x00, 0xdc, 0x09, 0x00, 0x00, 0xd4, 0x09, 0x00, 0x00,
  0xcc, 0x09, 0x00, 0x00, 0xbc, 0x01, 0x00, 0x00, 0x2c, 0x00, 0x00, 0x00,
  0x24, 0x00, 0x00, 0x00, 0x1c, 0x00, 0x00, 0x00, 0x04, 0x00, 0x00, 0x00,
  0x06, 0xed, 0xff, 0xff, 0x04, 0x00, 0x00, 0x00, 0x05, 0x00, 0x00, 0x00,
  0x31, 0x2e, 0x35, 0x2e, 0x30, 0x00, 0x00, 0x00, 0xd4, 0xe5, 0xff, 0xff,
  0xd8, 0xe5, 0xff, 0xff, 0x22, 0xed, 0xff, 0xff, 0x04, 0x00, 0x00, 0x00,
  0x80, 0x01, 0x00, 0x00, 0x4b, 0x04, 0x13, 0xbe, 0xc9, 0x3e, 0xe4, 0x3e,
  0x84, 0x40, 0xea, 0xbd, 0x2d, 0x04, 0x82, 0x3e, 0xbc, 0x62, 0x84, 0xbe,
  0xc8, 0xce, 0xed, 0xbe, 0xf6, 0x3d, 0x8e, 0xbe, 0x4a, 0xee, 0x97, 0xbd,
  0x3f, 0x19, 0x4e, 0xbd, 0x44, 0x82, 0x81, 0x3e, 0x6c, 0x90, 0x76, 0xbe,
  0x9d, 0x11, 0x39, 0xbe, 0xf2, 0xe1, 0xe2, 0xbd, 0x82, 0xb4, 0xaa, 0xbe,
  0xdd, 0x59, 0x21, 0x3d, 0xaf, 0xb4, 0x27, 0xbd, 0xf9, 0x2d, 0xaa, 0xbd,
  0xcd, 0xf9, 0x0c, 0xbf, 0xb8, 0x55, 0x42, 0xbc, 0x31, 0x06, 0xb4, 0x3d,
  0x13, 0xe5, 0xc9, 0xbc, 0x4a, 0xb2, 0x1d, 0x3e, 0x2b, 0x62, 0xa6, 0x3e,
  0x49, 0x51, 0x88, 0xbe, 0xb8, 0x4f, 0xa6, 0xbe, 0x6d, 0x89, 0xc6, 0x3e,
  0x5a, 0x15, 0xaf, 0xbe, 0x88, 0xdb, 0x81, 0x3e, 0x1a, 0x50, 0x47, 0x3f,
  0x8a, 0x62, 0xf3, 0x3e, 0x48, 0x27, 0x46, 0x3c, 0xf6, 0x19, 0x0f, 0xbe,
  0x0d, 0x1e, 0x2f, 0xbe, 0x89, 0xa9, 0xe2, 0xbc, 0x08, 0xe1, 0xc0, 0x3e,
  0xae, 0xec, 0xe9, 0x3c, 0xb4, 0x19, 0x14, 0xbd, 0xa8, 0x29, 0x5b, 0x3e,
  0x08, 0x89, 0x1c, 0xbe, 0xd1, 0xd3, 0xb0, 0xbc, 0x3b, 0x25, 0x5f, 0xbd,
  0x46, 0x09, 0x83, 0xbe, 0x32, 0xad, 0x3b, 0x3e, 0x99, 0x1a, 0x54, 0xbe,
  0xef, 0x73, 0x6c, 0xbe, 0xef, 0x90, 0xe9, 0x3d, 0xc3, 0x73, 0x27, 0x3d,
  0x24, 0x5f, 0x93, 0xbe, 0xc3, 0x8d, 0x24, 0xbe, 0xa0, 0x46, 0x08, 0x3d,
  0x75, 0xa4, 0x82, 0x3e, 0x87, 0xde, 0xa9, 0xbe, 0xe7, 0xeb, 0xe4, 0x3e,
  0xa1, 0xe4, 0xf5, 0x3d, 0xee, 0x30, 0xb4, 0x3d, 0x76, 0x98, 0x82, 0xbc,
  0x21, 0x41, 0xa7, 0xbd, 0x4c, 0x64, 0x19, 0xbe, 0x6b, 0x5d, 0xf0, 0xbe,
  0x5d, 0xd8, 0x73, 0xbe, 0x93, 0xa0, 0xd6, 0x3c, 0x12, 0x57, 0x1b, 0x3e,
  0x97, 0x07, 0x65, 0xbd, 0xac, 0xd3, 0x93, 0x3c, 0x3f, 0x47, 0x2d, 0x3e,
  0xbe, 0xa8, 0x54, 0x3c, 0x4d, 0x33, 0x9c, 0xbe, 0x81, 0x52, 0x4b, 0xbd,
  0x1f, 0xa0, 0xbd, 0xbd, 0xf5, 0xa3, 0x60, 0xbe, 0x61, 0x69, 0xa3, 0xbd,
  0xa9, 0x20, 0xf3, 0xbe, 0x6a, 0xa4, 0x04, 0xbe, 0xb6, 0x63, 0x29, 0xbc,
  0x6f, 0xba, 0xac, 0xbe, 0x4c, 0x4b, 0x18, 0xbf, 0xd7, 0xc9, 0x0c, 0x3d,
  0x15, 0x73, 0xf2, 0x3c, 0xf9, 0x0c, 0x03, 0x3e, 0xd2, 0x58, 0xa0, 0xbe,
  0x44, 0x3e, 0xb9, 0xbd, 0x6b, 0x0f, 0x4c, 0xbe, 0x32, 0x70, 0xe3, 0x3d,
  0x9b, 0x02, 0xd4, 0xbe, 0x19, 0x7d, 0x4e, 0x3d, 0xae, 0xa8, 0x57, 0xbc,
  0xe6, 0x17, 0xe8, 0x3c, 0xba, 0xf2, 0x9b, 0x3c, 0xdd, 0xfb, 0xd1, 0x3d,
  0x00, 0x98, 0xa8, 0x3e, 0xf8, 0xc0, 0xe4, 0x3c, 0xd5, 0x08, 0x24, 0x3c,
  0x24, 0xab, 0x51, 0xbd, 0x2d, 0xf4, 0xa7, 0x3d, 0xe4, 0xce, 0x42, 0xbe,
  0xd1, 0xc9, 0x13, 0xbf, 0xae, 0xee, 0xff, 0xff, 0x04, 0x00, 0x00, 0x00,
  0x00, 0x08, 0x00, 0x00, 0xf7, 0xb1, 0x25, 0xbf, 0xb6, 0x90, 0xbd, 0xbe,
  0x1a, 0xea, 0xb0, 0xbd, 0x04, 0x01, 0x3f, 0xbf, 0x02, 0x3e, 0xac, 0xbd,
  0x31, 0x63, 0x35, 0xbd, 0x3a, 0x51, 0xfb, 0x3c, 0xb8, 0x56, 0x09, 0xbf,
  0x41, 0x1c, 0x1c, 0xbe, 0x52, 0x55, 0x49, 0x3d, 0xf7, 0x01, 0x41, 0xbe,
  0x15, 0x22, 0x92, 0xbf, 0xa1, 0xdd, 0x7b, 0x3e, 0x95, 0x60, 0x72, 0x3e,
  0xe8, 0xfd, 0xb6, 0xbd, 0x03, 0x6b, 0x12, 0xbf, 0x30, 0xcd, 0x81, 0xbe,
  0xdd, 0xf4, 0x8d, 0x3e, 0xe0, 0x89, 0x04, 0xbf, 0xcc, 0x69, 0x84, 0xbf,
  0xfc, 0x55, 0xc5, 0x3e, 0xb6, 0x8a, 0x30, 0x3b, 0x46, 0xb6, 0x86, 0xbc,
  0xa7, 0x45, 0x46, 0xbf, 0x67, 0xb4, 0xad, 0xbd, 0xf8, 0xa1, 0x14, 0xbb,
  0x37, 0x07, 0x93, 0x3e, 0x54, 0x2a, 0x69, 0xbf, 0xb1, 0x96, 0x08, 0x3e,
  0x83, 0x1f, 0x51, 0x3c, 0x52, 0x57, 0xcc, 0xbd, 0x51, 0x83, 0x18, 0xbf,
  0x50, 0xce, 0x0e, 0xbd, 0x80, 0xc0, 0xa1, 0xbd, 0xc7, 0xa6, 0x31, 0x3e,
  0xf4, 0xb5, 0x36, 0xbd, 0xba, 0xad, 0x84, 0x3b, 0x57, 0xfb, 0xec, 0x3e,
  0xe8, 0xf7, 0x63, 0x3d, 0xb1, 0x3c, 0xad, 0xbd, 0xd7, 0x3c, 0xb7, 0xbd,
  0x1c, 0xf1, 0x0d, 0xbe, 0xb8, 0x76, 0xc3, 0x3e, 0x06, 0x35, 0xfa, 0xbd,
  0xd4, 0x17, 0xae, 0xbd, 0x4b, 0x59, 0x69, 0xbd, 0x77, 0x82, 0x9a, 0xbd,
  0xaa, 0x4c, 0x1b, 0xbe, 0x18, 0x25, 0x90, 0xbd, 0x91, 0xab, 0x62, 0xbd,
  0x96, 0x4a, 0x3a, 0x3d, 0xce, 0x7d, 0x17, 0x3c, 0xee, 0x16, 0xa9, 0xbc,
  0x58, 0x7c, 0x27, 0xbd, 0x4c, 0xf6, 0x84, 0xbc, 0x4f, 0x29, 0x14, 0xbe,
  0x5f, 0x0e, 0x28, 0xbd, 0x3f, 0x71, 0x81, 0xbe, 0xc0, 0xf2, 0xf7, 0x3d,
  0x7d, 0x4e, 0x94, 0x3c, 0x3b, 0x19, 0xa0, 0xbc, 0x5c, 0x75, 0x42, 0xbd,
  0xb3, 0xee, 0xdc, 0xbd, 0xc5, 0x7c, 0x11, 0xbd, 0xa2, 0x84, 0x93, 0x3c,
  0xa1, 0x12, 0x0f, 0x3e, 0xde, 0x37, 0x20, 0x3f, 0xdc, 0x00, 0x1e, 0xbe,
  0x6d, 0x13, 0xaa, 0x3d, 0x8e, 0xbd, 0x0a, 0x3d, 0xb0, 0x66, 0xe9, 0x3d,
  0x93, 0xbe, 0xbb, 0xbd, 0x21, 0x8c, 0x77, 0xbd, 0x4c, 0xda, 0x24, 0xbf,
  0x91, 0xa4, 0x1c, 0x3e, 0x48, 0x0a, 0xb3, 0xbe, 0x37, 0x0c, 0x60, 0xbe,
  0x47, 0x1e, 0xa7, 0x3c, 0xda, 0x86, 0xd1, 0x3d, 0x9d, 0x96, 0x15, 0xbe,
  0xa5, 0x54, 0xe6, 0xbd, 0xf4, 0x3b, 0x81, 0xbe, 0xf6, 0xb8, 0xae, 0xbc,
  0xd7, 0xe9, 0x9b, 0xbe, 0x57, 0xee, 0x5b, 0xbd, 0xea, 0x7a, 0x83, 0x3c,
  0xa4, 0x51, 0xbb, 0x3d, 0x5b, 0x94, 0xe7, 0x3c, 0x96, 0xdd, 0x0b, 0xbe,
  0xdb, 0x1a, 0xa0, 0xbe, 0xfa, 0xca, 0x9a, 0x3e, 0x51, 0x97, 0xc5, 0xbe,
  0x56, 0xbb, 0x18, 0xbd, 0x2e, 0xd4, 0xb0, 0x3d, 0xbd, 0xa1, 0x9e, 0xbd,
  0x78, 0x6e, 0x07, 0xbd, 0xb2, 0xd5, 0xe6, 0xbd, 0x30, 0xea, 0xa6, 0xbe,
  0x62, 0x26, 0x1e, 0xbe, 0xe1, 0x66, 0xb1, 0x3d, 0xa8, 0x80, 0xa9, 0xbe,
  0x57, 0x25, 0x8a, 0xbe, 0x72, 0x70, 0x45, 0xbe, 0x23, 0x3a, 0x4c, 0xbe,
  0xc3, 0x7a, 0xb8, 0xbe, 0x43, 0xa1, 0x96, 0xbc, 0x02, 0x4b, 0x9d, 0xbe,
  0x1d, 0xac, 0x91, 0xbe, 0x8b, 0xd1, 0xb2, 0xbe, 0x73, 0x3d, 0x75, 0xbe,
  0x59, 0x76, 0x01, 0x3e, 0x17, 0x21, 0xe1, 0xbd, 0x61, 0xac, 0x4f, 0xbe,
  0x1c, 0x61, 0x9b, 0xbe, 0x71, 0x11, 0x09, 0xbe, 0x35, 0x88, 0x9b, 0x3d,
  0x42, 0xa5, 0xd8, 0xbe, 0x40, 0x40, 0x65, 0xbd, 0x46, 0xd4, 0x28, 0xbe,
  0xc0, 0xac, 0x52, 0x3d, 0xcb, 0xa0, 0x2f, 0xb8, 0x85, 0x15, 0x0c, 0x3b,
  0x50, 0x27, 0x56, 0xbe, 0x42, 0x9c, 0x35, 0x3d, 0x1f, 0x03, 0xb8, 0xbd,
  0x0c, 0x60, 0xb9, 0x3b, 0xc9, 0x0a, 0x15, 0xbd, 0xf4, 0xa1, 0x31, 0x3e,
  0xda, 0xe8, 0x72, 0xbc, 0x29, 0xd4, 0xa5, 0xbe, 0x25, 0xd7, 0x98, 0xbe,
  0x68, 0x35, 0x91, 0xbe, 0xb8, 0x65, 0xa8, 0xbd, 0x3b, 0xc0, 0x60, 0xbd,
  0xf2, 0x0f, 0x58, 0x3d, 0x13, 0xc2, 0xf2, 0xbb, 0xeb, 0xf0, 0x6b, 0xbe,
  0x5f, 0x30, 0xef, 0xbd, 0x68, 0x6b, 0xfc, 0xbe, 0x3c, 0xdc, 0xa8, 0xbe,
  0x91, 0x04, 0x26, 0x3e, 0x71, 0xa6, 0x5a, 0x3c, 0xee, 0x7c, 0x49, 0x3e,
  0x1a, 0xdb, 0x5b, 0x3e, 0xaf, 0xc5, 0x4c, 0xbe, 0x3c, 0x44, 0xf2, 0x3e,
  0x85, 0xa8, 0x8a, 0xbe, 0xd4, 0xf0, 0x82, 0x3d, 0xd0, 0xce, 0x80, 0xbd,
  0xea, 0xaa, 0x81, 0xbd, 0xde, 0x84, 0x1d, 0xbe, 0xe1, 0x59, 0xfe, 0x3d,
  0xa3, 0xf4, 0x84, 0xba, 0x3b, 0x93, 0x18, 0x3f, 0xed, 0x1c, 0x5f, 0x3e,
  0xc2, 0x05, 0x6d, 0x3e, 0x53, 0xb2, 0x74, 0xbe, 0xd0, 0xd3, 0xfa, 0xbd,
  0x23, 0xee, 0xbd, 0xbe, 0x35, 0x5d, 0xb9, 0xbd, 0x5b, 0x50, 0x2e, 0xbe,
  0x32, 0x18, 0xba, 0xbd, 0x93, 0x53, 0x3d, 0xbb, 0x87, 0x73, 0x11, 0xbe,
  0x45, 0xb4, 0xb7, 0xbd, 0x04, 0xd5, 0x86, 0xbe, 0xb5, 0x18, 0x77, 0xbd,
  0xcd, 0x1e, 0x98, 0xbd, 0x23, 0x28, 0xcf, 0xbd, 0x64, 0xfe, 0x2b, 0xbe,
  0x8b, 0xd0, 0xde, 0xbc, 0x7c, 0x42, 0x97, 0xbe, 0xc4, 0x7b, 0x03, 0xbe,
  0xa4, 0x26, 0x8a, 0xbe, 0xdd, 0x32, 0x7d, 0xbe, 0x02, 0x46, 0xfc, 0xbd,
  0xd1, 0x3f, 0x1d, 0xbd, 0x62, 0xc4, 0xa7, 0xbe, 0xf3, 0x50, 0x57, 0xbd,
  0x38, 0x65, 0x5c, 0x3c, 0x4b, 0xd3, 0x36, 0x3e, 0x8e, 0x96, 0x3a, 0xbe,
  0xea, 0x47, 0xce, 0x3d, 0xcb, 0xe3, 0x14, 0x3e, 0x66, 0x52, 0x50, 0xbe,
  0x4e, 0x80, 0x9b, 0x3c, 0xcb, 0x16, 0xad, 0xbd, 0xee, 0x90, 0xf9, 0xbc,
  0xe1, 0x7e, 0xd2, 0xbd, 0xa5, 0x55, 0x4e, 0x3d, 0x16, 0x32, 0xea, 0x3d,
  0x7d, 0x57, 0x4e, 0xbe, 0xb1, 0x94, 0x05, 0xbe, 0x4b, 0xed, 0x9f, 0xbe,
  0x28, 0x0f, 0x57, 0xbe, 0x6e, 0xf7, 0xf6, 0xbd, 0x61, 0x30, 0x72, 0xbc,
  0x9f, 0x5a, 0xb0, 0xbc, 0xa7, 0x29, 0x97, 0xbe, 0x00, 0xe0, 0x35, 0xbe,
  0x1c, 0x0c, 0x16, 0xbe, 0xe0, 0xb9, 0x70, 0x3d, 0xf2, 0x3c, 0x4d, 0xbe,
  0x9f, 0x51, 0x05, 0xbf, 0x11, 0x24, 0x6d, 0xbe, 0x61, 0x82, 0xf5, 0x3c,
  0xd8, 0xf6, 0x32, 0xbe, 0x8e, 0x23, 0x29, 0xbd, 0xd0, 0x63, 0x65, 0xbe,
  0x49, 0xd0, 0x80, 0xbe, 0x82, 0x05, 0xaa, 0xbe, 0x62, 0xe9, 0x0a, 0xbe,
  0x11, 0x6c, 0x40, 0x3c, 0x1d, 0xed, 0xc4, 0xbc, 0x75, 0xfd, 0xb5, 0x3e,
  0x0d, 0x04, 0x95, 0x3e, 0xa2, 0x7e, 0x18, 0xbe, 0x67, 0xb3, 0xaa, 0x3d,
  0x32, 0x08, 0x0c, 0xbe, 0x5b, 0xb9, 0xa4, 0x3e, 0x8e, 0x4a, 0xcd, 0xbd,
  0x4e, 0x98, 0x2a, 0x3e, 0x67, 0xeb, 0x5f, 0x3e, 0xd2, 0xf3, 0x5c, 0x3e,
  0x67, 0xd0, 0x3c, 0xbe, 0x1e, 0x1d, 0x83, 0x3e, 0x31, 0x2e, 0x87, 0x3e,
  0xe9, 0x5c, 0x35, 0xbd, 0x4d, 0x0a, 0xdf, 0x3e, 0x51, 0xfd, 0xab, 0xbd,
  0x27, 0x4b, 0xcd, 0x3d, 0xd1, 0x04, 0x99, 0x3e, 0x1b, 0x2f, 0x92, 0xbe,
  0xeb, 0xa5, 0xd2, 0x3d, 0x55, 0xfa, 0xd3, 0x3c, 0xc1, 0x98, 0x68, 0xbe,
  0x8d, 0x39, 0xa1, 0xbc, 0xb0, 0x31, 0x36, 0xbc, 0x7b, 0xd2, 0x48, 0xbd,
  0xd4, 0xa9, 0x70, 0xbd, 0x1e, 0xc9, 0xc0, 0xbe, 0x24, 0xbf, 0x75, 0x3d,
  0xbb, 0xaa, 0xd4, 0x3d, 0xac, 0x1f, 0x78, 0x3d, 0x2b, 0xec, 0xc5, 0x3c,
  0x84, 0x62, 0xd2, 0xbc, 0xab, 0xcb, 0x04, 0xbd, 0x6e, 0x7b, 0x3d, 0xbd,
  0x9e, 0x88, 0xa9, 0xbe, 0x76, 0xef, 0x35, 0xbe, 0xf8, 0xdc, 0xf4, 0x3c,
  0xe7, 0x4d, 0x75, 0xbe, 0x8a, 0xd5, 0x67, 0x3c, 0xa1, 0xdd, 0x64, 0xbd,
  0xa7, 0xe2, 0x2f, 0x3d, 0x0e, 0x11, 0x03, 0xbe, 0x15, 0x98, 0xe2, 0xbd,
  0x3a, 0x85, 0x80, 0xbe, 0x89, 0x76, 0x41, 0xbe, 0x06, 0x4d, 0x5a, 0xbe,
  0xb2, 0x32, 0x44, 0xbe, 0xa2, 0x24, 0x95, 0xbe, 0xe3, 0x31, 0x56, 0xbe,
  0x6a, 0xb1, 0x43, 0xbe, 0x74, 0xc7, 0x5e, 0xbe, 0xdd, 0xd2, 0x00, 0x3d,
  0xc1, 0xea, 0x2a, 0x3e, 0x33, 0x7d, 0xa7, 0x3d, 0xe0, 0x68, 0xee, 0x3e,
  0xc1, 0x8a, 0x12, 0xbe, 0x5d, 0xd4, 0x6d, 0xbe, 0x2b, 0xac, 0x1f, 0x3d,
  0x6b, 0xd7, 0x55, 0xbe, 0xd0, 0x5f, 0x6c, 0x3e, 0x4e, 0x95, 0x25, 0xbd,
  0x16, 0xa0, 0xfb, 0x3d, 0x84, 0xe5, 0x74, 0x3e, 0x6a, 0xd3, 0x54, 0xbe,
  0x9e, 0xfa, 0x5f, 0xbe, 0xd7, 0x57, 0x77, 0x3d, 0x0d, 0x1a, 0x56, 0xbe,
  0x16, 0x3e, 0x29, 0x3d, 0xad, 0x84, 0xb7, 0x3e, 0xe5, 0x3b, 0xda, 0x3c,
  0xff, 0x11, 0x8d, 0xbd, 0xb3, 0x16, 0xb0, 0x3b, 0x1b, 0x0b, 0x1c, 0xbe,
  0x65, 0xc9, 0xa0, 0xbd, 0x4f, 0x32, 0x72, 0xbe, 0xe1, 0xb7, 0x49, 0x3e,
  0xdf, 0x07, 0x44, 0xbd, 0xed, 0x6d, 0x60, 0xbd, 0xe0, 0x2a, 0x40, 0x3e,
  0xa9, 0x71, 0xe0, 0xbd, 0xf7, 0xfe, 0xa3, 0xbc, 0x82, 0x9f, 0x8c, 0xbe,
  0x1e, 0xbc, 0x21, 0xbe, 0x25, 0x43, 0xa5, 0xbb, 0x0a, 0xef, 0x42, 0x3e,
  0x99, 0x4a, 0x2f, 0x3d, 0x6b, 0x87, 0xed, 0x3b, 0xdf, 0x84, 0x43, 0xbe,
  0x0c, 0xb0, 0x24, 0xbe, 0x6b, 0x91, 0x22, 0xbe, 0x55, 0xeb, 0x26, 0xbe,
  0x5d, 0xaf, 0xeb, 0xbd, 0xde, 0x99, 0x3e, 0x3e, 0x63, 0x20, 0x0f, 0xbe,
  0xc0, 0x03, 0x8b, 0x3e, 0xff, 0x8a, 0x38, 0xbe, 0xa9, 0x07, 0xbb, 0xbe,
  0xdf, 0xd2, 0x81, 0xbd, 0x15, 0xbb, 0x3d, 0xbd, 0xff, 0x88, 0x9b, 0x3e,
  0x90, 0x2a, 0x1a, 0x3e, 0x64, 0xbb, 0xdb, 0x3d, 0x6d, 0xef, 0x32, 0x3e,
  0xc5, 0x32, 0x35, 0xbd, 0x72, 0x33, 0x5f, 0xbe, 0xaa, 0x1f, 0x10, 0x3f,
  0x07, 0xb2, 0x98, 0x3c, 0x85, 0x4b, 0x64, 0xbc, 0x1c, 0xc2, 0x21, 0x3d,
  0x45, 0x51, 0x46, 0xbd, 0xd3, 0xef, 0x63, 0xbe, 0x91, 0x61, 0x5c, 0xbd,
  0xaa, 0x15, 0x67, 0xbe, 0x35, 0xa5, 0x4c, 0xbe, 0x42, 0xee, 0x8d, 0xbe,
  0x0c, 0xc7, 0xd9, 0xbd, 0xb3, 0x4e, 0xd6, 0xbd, 0x20, 0xb8, 0x93, 0x3a,
  0x94, 0x10, 0x9b, 0x3d, 0x60, 0x3d, 0x99, 0xbd, 0x03, 0xf2, 0x84, 0xbe,
  0x2b, 0x33, 0x00, 0xbe, 0x36, 0xcc, 0x39, 0xbe, 0x83, 0x8d, 0x79, 0xbc,
  0x9b, 0x34, 0x36, 0xbe, 0xdb, 0x82, 0x93, 0xb9, 0x6b, 0x68, 0x16, 0xbd,
  0x29, 0x71, 0x76, 0xbe, 0x86, 0x13, 0xa9, 0xbd, 0x56, 0x92, 0x82, 0xbc,
  0x12, 0x72, 0x27, 0x3d, 0x2f, 0x3d, 0x6f, 0x3d, 0xb3, 0x59, 0x61, 0xbe,
  0xe1, 0x71, 0x85, 0xbe, 0xf8, 0x5e, 0x5f, 0xbe, 0xeb, 0x14, 0x06, 0xbd,
  0x92, 0x4d, 0x04, 0xbe, 0x1a, 0x8b, 0x33, 0xbd, 0x1f, 0x33, 0x92, 0x3c,
  0xca, 0x28, 0xbe, 0xbc, 0x8d, 0x0c, 0x14, 0x3e, 0x9b, 0x61, 0xd0, 0x3e,
  0xdb, 0x15, 0x1c, 0x3e, 0x4e, 0xa7, 0xc0, 0xbe, 0x03, 0xa1, 0x77, 0xbe,
  0xe7, 0x28, 0x82, 0xbe, 0x6b, 0x3b, 0x87, 0xbd, 0x99, 0xd3, 0x14, 0xbe,
  0x5a, 0x0b, 0xa8, 0x3d, 0x86, 0x75, 0xd0, 0x3c, 0x4b, 0xac, 0xdf, 0x3a,
  0x66, 0x91, 0xb1, 0xbe, 0xc5, 0xab, 0x51, 0xbe, 0xc0, 0x3f, 0x6f, 0xbe,
  0x7a, 0xbb, 0x4b, 0x3d, 0x28, 0x12, 0x8e, 0x3e, 0x1f, 0x88, 0xa9, 0xbb,
  0xa2, 0x9f, 0xd5, 0x3d, 0xa9, 0x8a, 0x75, 0xbc, 0xc9, 0xf3, 0xae, 0xbe,
  0x9e, 0x67, 0xa3, 0x3c, 0x48, 0xae, 0x73, 0xbe, 0x9d, 0x92, 0x16, 0xbd,
  0x90, 0x26, 0xb6, 0x3d, 0x31, 0x6c, 0x91, 0x3d, 0x90, 0x70, 0xe0, 0x3d,
  0x57, 0xbb, 0x81, 0x3d, 0x56, 0x29, 0xc5, 0xbe, 0x98, 0xd1, 0xe0, 0xbd,
  0x3e, 0x87, 0x7e, 0xbe, 0x58, 0xd2, 0x8e, 0xbb, 0x06, 0x79, 0x26, 0xbc,
  0x2d, 0x84, 0xbf, 0x3d, 0x0d, 0xd0, 0x90, 0x3d, 0x4c, 0x06, 0xc8, 0x3d,
  0x3a, 0x58, 0x08, 0xbe, 0x2f, 0x03, 0x66, 0xbe, 0x4c, 0x01, 0xa8, 0x3e,
  0x62, 0x06, 0x8d, 0x3d, 0xad, 0x3b, 0x1f, 0x3e, 0x64, 0x91, 0x8d, 0x3d,
  0xf0, 0xce, 0x12, 0xbe, 0xb3, 0xa6, 0x15, 0xbe, 0x98, 0xc4, 0x0b, 0x3d,
  0xbf, 0x15, 0xdf, 0xbd, 0xa8, 0xc6, 0x72, 0x3d, 0x88, 0x1a, 0x99, 0x3d,
  0x52, 0xf0, 0xa6, 0x3e, 0xf9, 0x29, 0x35, 0xbe, 0x84, 0x56, 0xac, 0xbe,
  0x1e, 0x17, 0xb4, 0x3c, 0x8a, 0x22, 0x88, 0xbc, 0x38, 0x56, 0xd0, 0x3d,
  0x0a, 0xc7, 0xa8, 0x3d, 0xf5, 0xe1, 0xe0, 0xbd, 0x7b, 0xc9, 0x83, 0xbd,
  0xf8, 0xf5, 0x94, 0xbf, 0xcf, 0x9e, 0x82, 0xbf, 0x4a, 0xfe, 0x9f, 0xbe,
  0x25, 0x7c, 0x30, 0xbd, 0x5e, 0x32, 0x85, 0x3e, 0x3a, 0xd6, 0xe5, 0xbd,
  0x1a, 0xb7, 0x78, 0xbe, 0x0e, 0x7d, 0x3a, 0xbe, 0xa8, 0x4d, 0x3c, 0xbf,
  0x8e, 0x6a, 0xd6, 0xbe, 0xd9, 0x0b, 0xa8, 0xbe, 0xaa, 0x68, 0x20, 0xbd,
  0xf1, 0x11, 0x39, 0xbd, 0xd0, 0x1c, 0x7f, 0xbe, 0xa0, 0xf4, 0xb2, 0xbd,
  0x43, 0x0d, 0xc5, 0xbd, 0xdc, 0x9c, 0x58, 0xbe, 0xeb, 0x0b, 0x2f, 0xbd,
  0x5e, 0x48, 0x82, 0xbd, 0xf8, 0xbf, 0x05, 0xbe, 0x36, 0x1c, 0x16, 0xbe,
  0xc7, 0xd8, 0x1a, 0xbe, 0xce, 0x5b, 0x2a, 0x3d, 0x2d, 0x28, 0x65, 0xbc,
  0x95, 0x3d, 0xb4, 0x3d, 0x16, 0x22, 0x09, 0x3d, 0x1f, 0x4d, 0x63, 0x3c,
  0xf1, 0x0f, 0x37, 0xbe, 0x57, 0x9b, 0x8a, 0xbe, 0xad, 0x87, 0xad, 0xbd,
  0x92, 0x4b, 0xde, 0x3d, 0x25, 0x40, 0x15, 0xbe, 0x03, 0xab, 0xf8, 0xbc,
  0x4d, 0x20, 0x88, 0x3d, 0xb6, 0x60, 0x1e, 0xbd, 0xc1, 0x4d, 0xaa, 0xbd,
  0xda, 0xfd, 0xb4, 0xbd, 0xfd, 0x88, 0x14, 0x3f, 0x02, 0x3d, 0xd7, 0x3d,
  0xd8, 0xbd, 0x37, 0x3e, 0xb1, 0xd5, 0x64, 0xbe, 0x0e, 0x2d, 0x3f, 0x3e,
  0x1c, 0x45, 0xde, 0x3e, 0xea, 0x06, 0x07, 0xbe, 0x48, 0xa6, 0x86, 0xbc,
  0xa6, 0x35, 0x19, 0xbf, 0x76, 0x4f, 0x96, 0xbd, 0x2b, 0xf1, 0xa0, 0xbe,
  0x19, 0xd5, 0x31, 0xbe, 0x3f, 0xd8, 0xbc, 0xbd, 0xa5, 0x82, 0x31, 0xbe,
  0xea, 0x8d, 0x5e, 0xbd, 0xdf, 0xcd, 0x5b, 0xbd, 0x89, 0xfa, 0x05, 0xbf,
  0x32, 0x94, 0x0a, 0x3d, 0x03, 0x30, 0xe5, 0xbd, 0xf9, 0x68, 0x5f, 0xbe,
  0xf1, 0xb2, 0x0a, 0xbe, 0x81, 0x1f, 0x02, 0x3e, 0x94, 0x0e, 0x4c, 0x3d,
  0x42, 0xa7, 0x6d, 0x3a, 0x45, 0xb9, 0x3a, 0xbe, 0x5a, 0xbc, 0x6a, 0xbc,
  0x27, 0x84, 0xcf, 0xbc, 0x8d, 0x29, 0x03, 0x3d, 0xc6, 0x35, 0x95, 0xbe,
  0x99, 0x6f, 0x13, 0x3e, 0xb8, 0x2c, 0xed, 0x3d, 0xb8, 0x2f, 0xe4, 0x3d,
  0x62, 0xeb, 0x22, 0x3e, 0x41, 0xcc, 0xb6, 0xbd, 0xfb, 0xa9, 0x8e, 0xbe,
  0xe0, 0x01, 0x82, 0xbe, 0xba, 0x18, 0x31, 0xbd, 0x52, 0x22, 0xc7, 0xbe,
  0x4a, 0xc4, 0xa5, 0xbe, 0xc6, 0xde, 0x80, 0xbe, 0xbe, 0x73, 0xee, 0xbd,
  0x1a, 0xa4, 0x4b, 0xbd, 0xc1, 0xbd, 0x07, 0x3e, 0xa9, 0xa9, 0x3b, 0x3e,
  0x87, 0x97, 0x2e, 0x3c, 0x33, 0x73, 0x33, 0x3e, 0xbf, 0xb8, 0xa5, 0xbe,
  0x31, 0xb5, 0x5c, 0xbe, 0x5e, 0x05, 0x0e, 0x3d, 0x5c, 0x6b, 0x06, 0xbd,
  0x7a, 0x7b, 0xb1, 0x3e, 0x47, 0x4e, 0x86, 0x3e, 0xc2, 0x23, 0x41, 0x3e,
  0x7b, 0x09, 0xc7, 0x3e, 0x10, 0xfb, 0x98, 0xbe, 0x50, 0x60, 0xc7, 0x3c,
  0x0b, 0xdc, 0x69, 0x3e, 0x7b, 0x8c, 0x14, 0xbe, 0x2a, 0x14, 0x56, 0x3e,
  0xe2, 0x93, 0x8c, 0xbd, 0xc6, 0xde, 0x50, 0xbe, 0xc3, 0x2b, 0xa0, 0x3d,
  0x5b, 0x6f, 0xc5, 0xbe, 0xba, 0xbd, 0xd6, 0xbe, 0x5b, 0x60, 0x80, 0xbb,
  0x74, 0xef, 0xff, 0xff, 0x78, 0xef, 0xff, 0xff, 0x7c, 0xef, 0xff, 0xff,
  0x80, 0xef, 0xff, 0xff, 0x84, 0xef, 0xff, 0xff, 0x88, 0xef, 0xff, 0xff,
  0xd2, 0xf6, 0xff, 0xff, 0x04, 0x00, 0x00, 0x00, 0x00, 0x07, 0x00, 0x00,
  0x05, 0x05, 0x00, 0xfd, 0x0b, 0x1e, 0xe7, 0xed, 0xe6, 0xd4, 0x11, 0xf4,
  0xdb, 0xc5, 0x09, 0xda, 0xf1, 0x0a, 0x08, 0x17, 0xe7, 0x1e, 0x16, 0xfc,
  0xdb, 0xf1, 0x09, 0xf8, 0xeb, 0x06, 0x09, 0xf6, 0xea, 0x04, 0x00, 0xfa,
  0x14, 0x03, 0x16, 0xeb, 0x25, 0xff, 0x06, 0xe2, 0xf7, 0x00, 0xfc, 0x0b,
  0xd6, 0xf9, 0x0c, 0x00, 0x22, 0xee, 0x24, 0xef, 0xfd, 0xf3, 0x0f, 0xed,
  0x08, 0xeb, 0xff, 0x08, 0xe8, 0x0c, 0x0b, 0x0d, 0x1d, 0xfb, 0x17, 0xda,
  0x04, 0xf8, 0x0d, 0x02, 0xf5, 0xe6, 0x07, 0x06, 0xeb, 0xf4, 0xfa, 0x00,
  0x20, 0x0b, 0x25, 0xeb, 0x1d, 0xe9, 0xf3, 0x08, 0xe6, 0xb8, 0x04, 0x02,
  0x03, 0x0f, 0xfc, 0xf9, 0x1d, 0x18, 0x07, 0xeb, 0x01, 0xd3, 0xf7, 0x08,
  0xf4, 0xd1, 0x0f, 0xcb, 0x20, 0x03, 0xe1, 0x0a, 0x11, 0xef, 0xff, 0x2b,
  0x3e, 0xfa, 0x07, 0x20, 0xeb, 0x00, 0x18, 0x19, 0x06, 0xf0, 0xf8, 0xe7,
  0xf2, 0x04, 0xf0, 0xfa, 0x18, 0x06, 0xff, 0x19, 0x81, 0x0e, 0xfb, 0x1b,
  0xf6, 0xf4, 0xf1, 0xe9, 0xdd, 0xeb, 0xda, 0xfd, 0xe7, 0x04, 0xf3, 0x0f,
  0x03, 0x20, 0x09, 0x01, 0xf6, 0xee, 0x01, 0xfb, 0xe2, 0x00, 0xfc, 0x1e,
  0xfe, 0x00, 0xef, 0x15, 0x24, 0x13, 0x04, 0x0f, 0xe3, 0x08, 0xf9, 0xf5,
  0xe3, 0xe9, 0xdb, 0x39, 0x14, 0xef, 0xf2, 0x08, 0x0d, 0xfb, 0xe9, 0x06,
  0x0f, 0xfe, 0xca, 0xfa, 0xf3, 0x0a, 0xdf, 0x0d, 0xfc, 0x18, 0xfd, 0xf8,
  0xd9, 0x18, 0x04, 0xff, 0xfc, 0xcf, 0xfb, 0x1a, 0xe5, 0x0a, 0xef, 0xf1,
  0x09, 0xfe, 0xe5, 0x05, 0xf4, 0x17, 0x0a, 0x08, 0xd2, 0xf3, 0x20, 0xf8,
  0xf3, 0x0e, 0x0d, 0xfa, 0xd3, 0xdc, 0xf6, 0xe6, 0x0c, 0xdb, 0xd0, 0xf6,
  0x23, 0x26, 0x17, 0x0f, 0xfb, 0x26, 0xec, 0xf8, 0x10, 0xf6, 0x06, 0xf6,
  0xed, 0x35, 0xeb, 0xe9, 0x11, 0x08, 0xfc, 0x0b, 0xec, 0xf4, 0x05, 0x08,
  0xff, 0xf9, 0xe4, 0xec, 0xf7, 0x0f, 0xf6, 0x00, 0x26, 0x1a, 0x21, 0xf2,
  0xe1, 0x1f, 0xf4, 0xf7, 0x12, 0xea, 0xfb, 0xfd, 0xf2, 0x05, 0xff, 0x09,
  0x08, 0xe8, 0xdd, 0x0a, 0xf7, 0xff, 0xcc, 0x17, 0x18, 0xf3, 0xe3, 0x0f,
  0x07, 0xe1, 0x0c, 0xfe, 0xf5, 0xfd, 0xf3, 0xe8, 0xe9, 0xfd, 0xf0, 0xf2,
  0xf0, 0xeb, 0x13, 0xf9, 0x07, 0xdc, 0x18, 0xfe, 0xf7, 0xd3, 0xeb, 0x0c,
  0xff, 0xf1, 0xf7, 0xf5, 0x08, 0xf5, 0xed, 0xf1, 0x03, 0xfa, 0x01, 0xfa,
  0xcc, 0x14, 0xe1, 0xfd, 0x00, 0xf4, 0xed, 0xad, 0xe6, 0x03, 0xe4, 0xdf,
  0xde, 0x08, 0x07, 0xe6, 0xca, 0xcb, 0xd3, 0xe6, 0x16, 0x23, 0x29, 0xd9,
  0x0f, 0x08, 0x00, 0xe3, 0x05, 0xdb, 0x0a, 0x0b, 0xeb, 0xd4, 0xf6, 0xeb,
  0x01, 0xf3, 0x0f, 0xde, 0x19, 0xe9, 0xf3, 0x0b, 0xfe, 0x04, 0x12, 0xf9,
  0xee, 0xbd, 0xf7, 0xf4, 0xfe, 0x04, 0xfe, 0xea, 0x28, 0xd9, 0xe7, 0x06,
  0xfe, 0xd7, 0x15, 0x00, 0xf2, 0xc8, 0xf1, 0x03, 0x12, 0xef, 0xf9, 0xe8,
  0xe9, 0xf8, 0xf2, 0xf4, 0x0c, 0xcf, 0x01, 0xf5, 0xe6, 0xba, 0xe9, 0xe4,
  0x00, 0xfa, 0x22, 0x07, 0x1a, 0xea, 0x05, 0xf2, 0x06, 0xc3, 0x10, 0x01,
  0xdd, 0xf7, 0x00, 0x12, 0xf6, 0x1c, 0x02, 0xfc, 0x16, 0xfa, 0x01, 0x01,
  0x07, 0xb1, 0x0d, 0xfd, 0xde, 0xe4, 0xec, 0xf4, 0x10, 0xf8, 0x15, 0x01,
  0x08, 0x02, 0x08, 0xe3, 0x1d, 0xff, 0xca, 0x00, 0xe2, 0xc3, 0x22, 0x02,
  0xee, 0x15, 0x0c, 0xe9, 0xfc, 0xc9, 0xeb, 0xe2, 0xfc, 0xe7, 0xe8, 0x0f,
  0xfd, 0x16, 0x12, 0xf3, 0xdb, 0x13, 0xeb, 0xfd, 0x00, 0xd7, 0x13, 0xcf,
  0x0b, 0xfd, 0xeb, 0xf3, 0x2d, 0x10, 0x11, 0x10, 0xe6, 0x24, 0x1b, 0x09,
  0x02, 0xe4, 0x17, 0xd0, 0x01, 0x06, 0x0c, 0xea, 0x42, 0x14, 0x15, 0xe8,
  0xfa, 0x10, 0xf2, 0x0a, 0x1d, 0xeb, 0xfe, 0xea, 0xeb, 0xe9, 0x10, 0xe8,
  0x1a, 0xfe, 0xf8, 0xf3, 0xf4, 0x19, 0xd1, 0x0c, 0x02, 0xeb, 0x07, 0xeb,
  0xea, 0xf7, 0x08, 0xfc, 0x9d, 0xe3, 0x03, 0xef, 0xe1, 0x04, 0xdb, 0x07,
  0xe7, 0xf1, 0xe7, 0xea, 0x00, 0xfa, 0xfb, 0xfb, 0xf6, 0xeb, 0xeb, 0x02,
  0x03, 0xfd, 0x0b, 0x44, 0x1e, 0x17, 0xf0, 0x0c, 0x20, 0x17, 0xdf, 0x21,
  0xd9, 0xde, 0xf8, 0x04, 0xe3, 0x03, 0xf4, 0x22, 0x08, 0xed, 0xfd, 0x19,
  0x1f, 0x07, 0xf1, 0xfb, 0x0f, 0x13, 0x0a, 0xf3, 0xea, 0x00, 0x07, 0x18,
  0x03, 0xfc, 0x03, 0x1d, 0x05, 0x16, 0x0f, 0x14, 0x0d, 0x1e, 0xf1, 0xe9,
  0xf4, 0x0b, 0x12, 0x02, 0x0f, 0x0c, 0x19, 0xfe, 0xd8, 0x1f, 0xfd, 0x0a,
  0x07, 0xf2, 0xdf, 0x1a, 0xf4, 0x03, 0xeb, 0xfb, 0x09, 0xf8, 0x09, 0x04,
  0xda, 0x1d, 0xf1, 0x17, 0xf1, 0xf4, 0xf4, 0x10, 0xeb, 0xea, 0xff, 0x12,
  0xec, 0xfe, 0xfa, 0xfe, 0x11, 0xf8, 0xe9, 0x08, 0x09, 0x1a, 0x07, 0x0c,
  0xf8, 0x26, 0xf9, 0x0e, 0x1e, 0xff, 0xef, 0xfe, 0x02, 0x2f, 0xff, 0xf9,
  0xe5, 0xf8, 0xe1, 0xe0, 0xf2, 0x1a, 0x22, 0x03, 0xf6, 0xe4, 0x09, 0x08,
  0x08, 0xe2, 0xe5, 0x15, 0x07, 0x0c, 0x1e, 0xf1, 0xee, 0xf8, 0x0a, 0x01,
  0xdc, 0xc7, 0x01, 0x07, 0xf0, 0xec, 0x04, 0xdd, 0x11, 0x18, 0x1c, 0x11,
  0xdb, 0xfd, 0x0d, 0xdf, 0x20, 0xe5, 0x12, 0xf5, 0xfe, 0x0e, 0x00, 0xe1,
  0x3f, 0x24, 0x1e, 0x0a, 0xde, 0x0a, 0xf8, 0x09, 0x0e, 0xf8, 0xf3, 0xfb,
  0xeb, 0xe6, 0xec, 0xf3, 0x29, 0x03, 0xe9, 0x0a, 0x08, 0xfd, 0xcc, 0xfb,
  0xf8, 0x0b, 0x00, 0xda, 0x07, 0xe7, 0x07, 0x03, 0xd5, 0xe7, 0x0d, 0x09,
  0x06, 0x11, 0xb8, 0xdf, 0xf8, 0x03, 0x05, 0xda, 0x06, 0xf0, 0x0b, 0x0a,
  0xe7, 0xe6, 0x0b, 0x09, 0xfc, 0xf2, 0xf8, 0xf9, 0x10, 0xe1, 0xf1, 0xe4,
  0x02, 0x0a, 0x03, 0xe9, 0x12, 0x01, 0xf8, 0xf0, 0x0c, 0xf4, 0x02, 0x2d,
  0x19, 0x0a, 0x01, 0x14, 0xdd, 0x0b, 0x1a, 0x0a, 0xd5, 0xd4, 0xe1, 0x05,
  0xfb, 0xe5, 0x14, 0xfd, 0x10, 0x09, 0x07, 0x1c, 0x0c, 0x08, 0xfc, 0x04,
  0xf4, 0xf0, 0xec, 0x15, 0xf9, 0x03, 0xfb, 0x11, 0x20, 0x11, 0xf5, 0x04,
  0x03, 0x14, 0x09, 0x19, 0xeb, 0xe3, 0xed, 0xea, 0xf7, 0xf9, 0xfc, 0x1a,
  0x14, 0x09, 0xe5, 0x0a, 0x0f, 0x25, 0xfa, 0x00, 0xe6, 0xf0, 0xf5, 0xef,
  0x04, 0x15, 0xe8, 0x0e, 0xff, 0x0b, 0x00, 0x06, 0x0b, 0xf7, 0x0a, 0x11,
  0xe7, 0xf5, 0xdc, 0x01, 0xfe, 0x08, 0x00, 0x0d, 0x10, 0x0c, 0x09, 0xec,
  0xab, 0x10, 0x03, 0x0c, 0x0f, 0x01, 0x02, 0x14, 0xf9, 0x03, 0xf9, 0x03,
  0x13, 0xf6, 0x0a, 0x0a, 0x05, 0x09, 0x00, 0x05, 0xf1, 0xbf, 0xf2, 0xff,
  0x01, 0xee, 0x09, 0x0d, 0x03, 0x07, 0xfc, 0x20, 0x17, 0x25, 0xeb, 0x00,
  0xbc, 0xf7, 0xf8, 0x05, 0x09, 0x06, 0xfd, 0x16, 0x14, 0xe3, 0x13, 0x4c,
  0x22, 0x0e, 0xf8, 0xf1, 0xde, 0xee, 0xf5, 0x19, 0xeb, 0x03, 0xed, 0xfa,
  0xfb, 0x09, 0x11, 0xf4, 0xfe, 0xf7, 0x12, 0x15, 0xf7, 0xfd, 0xf1, 0xfe,
  0xe6, 0xfe, 0x16, 0x02, 0x0b, 0xc7, 0xff, 0x02, 0xf9, 0xe5, 0xee, 0x34,
  0x0d, 0x03, 0xff, 0xfa, 0xe4, 0x1c, 0x24, 0xfb, 0x04, 0xef, 0xee, 0xf5,
  0xf4, 0x0a, 0xeb, 0x04, 0xf5, 0xed, 0xf3, 0xf3, 0xf0, 0x1d, 0x1d, 0xe4,
  0x05, 0xe5, 0x04, 0xf1, 0xe9, 0xe3, 0x0b, 0x12, 0x0b, 0xf7, 0x05, 0x1e,
  0x03, 0xfd, 0x27, 0xca, 0xf6, 0x05, 0x01, 0xfa, 0xde, 0xe5, 0xfb, 0xe2,
  0xfd, 0xfd, 0xf4, 0xe9, 0xf9, 0x0a, 0x06, 0xf3, 0xeb, 0xf7, 0xec, 0xef,
  0xdb, 0xd6, 0x0f, 0xf5, 0x13, 0xe7, 0xfb, 0xeb, 0x1a, 0xf7, 0x2b, 0xef,
  0xf0, 0x09, 0xf5, 0xe9, 0xf3, 0x06, 0x09, 0x00, 0xfe, 0x01, 0x12, 0xf1,
  0x2e, 0x11, 0x23, 0xe1, 0xe7, 0xf2, 0x18, 0xfe, 0xfe, 0xd6, 0xe0, 0xe1,
  0xcf, 0x01, 0xf6, 0x19, 0x12, 0x16, 0xd8, 0xe4, 0x05, 0xe4, 0x15, 0x02,
  0xde, 0xcc, 0xe1, 0xfc, 0xf0, 0x16, 0x0a, 0x1a, 0xc7, 0xef, 0x1b, 0xfd,
  0x19, 0xd5, 0x0d, 0x0a, 0xfa, 0xf4, 0x02, 0x02, 0xfb, 0xc3, 0xe6, 0x02,
  0xb4, 0x0b, 0x2e, 0xe4, 0x1c, 0xf0, 0x0a, 0xfa, 0xf8, 0xd2, 0xfd, 0x0c,
  0x05, 0xec, 0xfc, 0x06, 0xe3, 0x08, 0xf9, 0xfb, 0xf2, 0xdf, 0xe1, 0xfd,
  0xe8, 0xee, 0x09, 0x01, 0x1f, 0xfb, 0x12, 0xf7, 0x15, 0x0e, 0x03, 0x3d,
  0x1d, 0x18, 0xf6, 0x23, 0x12, 0x23, 0x03, 0x1f, 0xef, 0xd9, 0xc6, 0xe6,
  0xf5, 0xea, 0xe2, 0x11, 0xfe, 0xf8, 0xf5, 0x1f, 0x03, 0x0d, 0x06, 0x0d,
  0xf8, 0xeb, 0xd9, 0xf0, 0xf2, 0xf7, 0xdd, 0x29, 0x08, 0x09, 0xe3, 0x19,
  0xfb, 0x2a, 0x1a, 0x05, 0xea, 0xe4, 0xe7, 0x17, 0xf7, 0xfc, 0xf3, 0x14,
  0x23, 0xfb, 0x0f, 0xf2, 0xfd, 0x23, 0xf7, 0x0d, 0xf7, 0x13, 0xe0, 0x13,
  0xf8, 0xea, 0xf5, 0x06, 0x1e, 0x02, 0xf7, 0xf8, 0x02, 0x2c, 0xf6, 0x04,
  0xef, 0xf5, 0xd9, 0x02, 0xee, 0x07, 0xf2, 0x12, 0xff, 0x15, 0xfe, 0x00,
  0x26, 0x2a, 0x07, 0x0c, 0xf1, 0x08, 0xf3, 0x03, 0xe3, 0xfa, 0xf5, 0x05,
  0xff, 0xf6, 0x00, 0xfa, 0xfe, 0x2d, 0x06, 0x0b, 0xe3, 0x12, 0xd6, 0xe8,
  0xd6, 0xee, 0x07, 0xdc, 0x07, 0xeb, 0xfe, 0x16, 0xa2, 0xf9, 0x0b, 0xd8,
  0xf9, 0xd8, 0xed, 0x09, 0x11, 0x0e, 0x07, 0xff, 0x0c, 0xe9, 0x06, 0xf1,
  0xfb, 0xda, 0x0b, 0x00, 0x14, 0xcb, 0xea, 0x19, 0x13, 0x0f, 0x15, 0x01,
  0x0b, 0x02, 0xf3, 0xf3, 0x04, 0xe2, 0xfe, 0x0e, 0x11, 0xe0, 0xf1, 0x08,
  0x0e, 0x04, 0x0d, 0x06, 0x11, 0xf6, 0xe9, 0xd3, 0xf8, 0xe0, 0x12, 0xf7,
  0x01, 0xda, 0xef, 0x0a, 0xf1, 0x1f, 0x22, 0xe3, 0x00, 0xfd, 0xf2, 0xec,
  0xf7, 0xe5, 0x08, 0x05, 0xe3, 0xdf, 0xeb, 0xfe, 0x1a, 0x22, 0x11, 0xfc,
  0x1a, 0x04, 0x00, 0x12, 0xf8, 0xf6, 0x06, 0xea, 0xc5, 0xf0, 0x02, 0x0c,
  0x1a, 0x0a, 0x14, 0xfb, 0xf3, 0x0e, 0xf5, 0x01, 0x02, 0xca, 0xfb, 0xee,
  0xd4, 0xf5, 0x13, 0xe6, 0xfb, 0x08, 0x09, 0x07, 0x10, 0xd2, 0x15, 0x05,
  0x0e, 0xd2, 0xdd, 0xff, 0x30, 0x15, 0x11, 0x07, 0xef, 0x05, 0xf6, 0x12,
  0x06, 0xf3, 0x05, 0x03, 0x00, 0x14, 0x05, 0x0e, 0x26, 0x06, 0xfc, 0x01,
  0xfd, 0xf1, 0xff, 0xfd, 0xed, 0xf8, 0x10, 0x02, 0xf0, 0x04, 0xf7, 0x01,
  0xe7, 0xec, 0xb7, 0x23, 0xff, 0x17, 0xdd, 0xee, 0xf9, 0xf4, 0xfd, 0xf9,
  0xf3, 0x0a, 0xfc, 0x00, 0x8a, 0xcb, 0xef, 0x06, 0x00, 0x13, 0xe6, 0xfd,
  0xf6, 0xe3, 0xf3, 0x0a, 0x05, 0xec, 0xe9, 0x05, 0x31, 0x20, 0x25, 0x0c,
  0xf4, 0x12, 0xed, 0x06, 0xf0, 0xd3, 0x08, 0x05, 0x0d, 0x01, 0xfb, 0xf8,
  0x33, 0x05, 0x06, 0xf9, 0x06, 0x14, 0xf7, 0xfb, 0xf4, 0xf7, 0xfc, 0xf7,
  0xfd, 0x1b, 0x08, 0x01, 0xd9, 0xf4, 0x08, 0xf6, 0x16, 0xf3, 0x0c, 0xea,
  0xf5, 0x04, 0x03, 0xe2, 0x2d, 0x04, 0xe5, 0x07, 0x10, 0xd0, 0xd2, 0xf0,
  0x00, 0xe7, 0x03, 0xf4, 0x0d, 0x00, 0xf4, 0xf3, 0x11, 0x13, 0xcb, 0x05,
  0x0a, 0xeb, 0xf9, 0x19, 0xf0, 0x0d, 0xe2, 0x1b, 0x05, 0xf4, 0x0b, 0xdb,
  0x18, 0x1f, 0x09, 0x06, 0x29, 0x09, 0x04, 0x00, 0xf3, 0x19, 0xea, 0x1f,
  0x0a, 0x08, 0x0a, 0xf1, 0x07, 0x13, 0x07, 0xff, 0x03, 0x1d, 0x18, 0xfe,
  0x03, 0xfa, 0xf5, 0x0b, 0x03, 0x00, 0x14, 0xf1, 0xfe, 0x12, 0x07, 0x0a,
  0x27, 0x22, 0x22, 0xea, 0xf4, 0x1a, 0xe9, 0x09, 0xef, 0xfd, 0xf3, 0xea,
  0xd7, 0x10, 0x0e, 0xf6, 0xf9, 0xdf, 0xee, 0x36, 0xf0, 0x03, 0xfa, 0xf8,
  0x03, 0x03, 0xfa, 0xe9, 0xf8, 0x2a, 0x0f, 0x07, 0x27, 0x02, 0x0a, 0x13,
  0x06, 0xfc, 0xed, 0xf4, 0x2c, 0x0b, 0xec, 0x0f, 0xe7, 0x03, 0x1d, 0x0c,
  0xef, 0xeb, 0xf4, 0xef, 0xdb, 0x0d, 0xef, 0xea, 0x0c, 0x13, 0xf5, 0x05,
  0xfe, 0x07, 0xfd, 0x0f, 0x12, 0xfa, 0x01, 0xf5, 0xff, 0x0c, 0x04, 0x13,
  0x19, 0x03, 0xee, 0x0e, 0x0c, 0x15, 0xf8, 0x06, 0xed, 0x02, 0x05, 0x0b,
  0x02, 0xe3, 0xfe, 0xfd, 0xf3, 0x0c, 0x0c, 0xfc, 0x0e, 0x30, 0x08, 0xfb,
  0xe7, 0xfc, 0x00, 0x16, 0xfb, 0x14, 0xfa, 0x0f, 0x05, 0x0e, 0x00, 0xfa,
  0x11, 0x24, 0xf6, 0x0d, 0xfe, 0xf8, 0xed, 0x0f, 0x14, 0x15, 0xf5, 0x15,
  0x0c, 0x04, 0x0a, 0x16, 0x0e, 0x11, 0xf3, 0x0a, 0xea, 0x06, 0xfc, 0xf9,
  0xdb, 0x20, 0xf2, 0xef, 0x07, 0x23, 0xeb, 0x06, 0xf1, 0x02, 0xe9, 0x0b,
  0x05, 0xfa, 0x00, 0x0e, 0xfc, 0x05, 0x01, 0x05, 0x05, 0xf7, 0xec, 0xf6,
  0x03, 0x23, 0xf6, 0xef, 0xee, 0xf2, 0xfe, 0xe9, 0xfc, 0x19, 0xea, 0xe6,
  0xe2, 0xd5, 0x08, 0xf6, 0xef, 0xeb, 0xfc, 0xe8, 0x03, 0xdc, 0x22, 0xf3,
  0xfb, 0xf3, 0x11, 0x04, 0xf4, 0xdf, 0xf8, 0xf7, 0xf1, 0xdb, 0x04, 0x05,
  0x15, 0x05, 0xee, 0x04, 0xde, 0xea, 0xf0, 0xf1, 0xfe, 0xf8, 0xff, 0xef,
  0xe4, 0xfa, 0x19, 0xf5, 0x0e, 0x16, 0x19, 0x15, 0xfa, 0xee, 0x13, 0xf4,
  0x17, 0xfc, 0x09, 0xed, 0xf6, 0xef, 0x0d, 0xf6, 0x01, 0x04, 0x0e, 0xf6,
  0x27, 0xf5, 0x0a, 0xed, 0x13, 0xf3, 0xfe, 0xff, 0xea, 0xed, 0xde, 0x0b,
  0xd0, 0x06, 0x1a, 0xf5, 0xc0, 0x0a, 0xe5, 0xee, 0xf4, 0xed, 0x09, 0xfd,
  0xfb, 0xf0, 0x06, 0xe4, 0xde, 0xfd, 0xff, 0xff, 0x04, 0x00, 0x00, 0x00,
  0x20, 0x00, 0x00, 0x00, 0xcc, 0x29, 0xce, 0xbf, 0x9b, 0x5b, 0xed, 0xbf,
  0xce, 0x9b, 0x1f, 0xbe, 0xcc, 0x56, 0xdf, 0xbe, 0x57, 0x90, 0xd9, 0xbe,
  0x61, 0x6a, 0x9a, 0xbf, 0x22, 0xd1, 0x02, 0xc0, 0x51, 0xab, 0x8c, 0xbf,
  0x0a, 0xfe, 0xff, 0xff, 0x04, 0x00, 0x00, 0x00, 0x40, 0x00, 0x00, 0x00,
  0xbb, 0x7a, 0x1c, 0x3f, 0x25, 0x29, 0x0b, 0xbf, 0x43, 0x38, 0x28, 0x3c,
  0x0f, 0xeb, 0x2f, 0xbe, 0x08, 0x89, 0x60, 0xbf, 0x5f, 0xc5, 0x1c, 0xbe,
  0x53, 0xac, 0x09, 0xbe, 0x15, 0x35, 0x58, 0x3e, 0x42, 0xeb, 0x91, 0xbc,
  0xe1, 0x50, 0x34, 0xbf, 0xcd, 0x35, 0x84, 0xbe, 0x0b, 0x2a, 0xfa, 0xbe,
  0x69, 0x38, 0x15, 0xbf, 0x05, 0xf1, 0x52, 0xbe, 0x68, 0x0d, 0x4b, 0xbe,
  0xbd, 0x2d, 0x08, 0xbf, 0x56, 0xfe, 0xff, 0xff, 0x04, 0x00, 0x00, 0x00,
  0x0c, 0x00, 0x00, 0x00, 0x91, 0x97, 0x83, 0x3e, 0x16, 0x24, 0x00, 0x3f,
  0x72, 0x77, 0x76, 0xbf, 0x6e, 0xfe, 0xff, 0xff, 0x04, 0x00, 0x00, 0x00,
  0xc0, 0x00, 0x00, 0x00, 0xc8, 0xce, 0x6a, 0x3d, 0x91, 0xbd, 0xc6, 0xbd,
  0x77, 0x4b, 0x52, 0x3e, 0xb2, 0x28, 0x27, 0xbd, 0x4b, 0x02, 0xa8, 0x3c,
  0xe8, 0x3c, 0x07, 0x3d, 0x5e, 0x7f, 0x34, 0x3e, 0x42, 0x31, 0xad, 0x3e,
  0x20, 0xc8, 0x39, 0xbe, 0x10, 0x3b, 0x12, 0xbe, 0x49, 0xb4, 0x23, 0x3e,
  0xd9, 0x72, 0x1a, 0xbe, 0xad, 0xce, 0xb5, 0x3e, 0x93, 0x34, 0x65, 0x3e,
  0x49, 0x4a, 0x23, 0xbe, 0xa9, 0x00, 0x3f, 0x3e, 0x6e, 0xcd, 0xfb, 0x3d,
  0xe8, 0xdc, 0x89, 0xbd, 0x88, 0xb7, 0xec, 0x3d, 0x9a, 0x4c, 0x2c, 0x3e,
  0x88, 0x46, 0xa7, 0xbd, 0x9a, 0xba, 0xca, 0xb9, 0xb3, 0x42, 0xff, 0x3d,
  0x7e, 0xdf, 0xed, 0x3e, 0x35, 0xb4, 0xf0, 0xbd, 0xdc, 0xc9, 0x8f, 0x3c,
  0x29, 0x3d, 0x49, 0x3e, 0xf2, 0x9a, 0xbb, 0x3d, 0xac, 0x13, 0x75, 0x3e,
  0x1f, 0xaf, 0x0d, 0x3e, 0xe7, 0x5a, 0x1f, 0xbd, 0x10, 0x4e, 0x61, 0x3e,
  0x10, 0x21, 0x76, 0x3c, 0xe5, 0xc8, 0xb6, 0x3b, 0x6a, 0x60, 0x0c, 0x3e,
  0x52, 0x79, 0xee, 0x3d, 0x53, 0x70, 0x1f, 0xbd, 0x82, 0x02, 0x9d, 0x3d,
  0xe7, 0xb3, 0x86, 0x3d, 0x70, 0xc7, 0xf3, 0x3e, 0xef, 0x7b, 0x67, 0xbd,
  0x9e, 0x13, 0xa8, 0xbd, 0x9b, 0xf9, 0x75, 0x3e, 0x1f, 0x49, 0x18, 0x3d,
  0xdd, 0xd1, 0x96, 0x3e, 0x39, 0xc0, 0x6e, 0x3e, 0xca, 0xb6, 0xa9, 0xbc,
  0x42, 0x5a, 0x70, 0x3d, 0x3a, 0xff, 0xff, 0xff, 0x04, 0x00, 0x00, 0x00,
  0x40, 0x00, 0x00, 0x00, 0x06, 0x32, 0xf8, 0xbe, 0xfe, 0x2a, 0x95, 0xbf,
  0x26, 0x28, 0xf2, 0xbc, 0x5b, 0xa9, 0x2f, 0x3f, 0xb2, 0x2a, 0x14, 0xbc,
  0x46, 0x1a, 0xa8, 0xbf, 0x95, 0xa7, 0x0a, 0x3f, 0x8d, 0x8e, 0x95, 0xbe,
  0x83, 0x87, 0x86, 0xbf, 0x4e, 0x78, 0x11, 0xbf, 0x47, 0x69, 0x92, 0xbf,
  0x81, 0x8d, 0x6e, 0x3f, 0xc3, 0xfe, 0x31, 0x3d, 0xf1, 0x44, 0xe7, 0xbe,
  0x45, 0xff, 0xb2, 0xbf, 0xe7, 0xe8, 0x93, 0xbe, 0x40, 0xf8, 0xff, 0xff,
  0x0f, 0x00, 0x00, 0x00, 0x54, 0x4f, 0x43, 0x4f, 0x20, 0x43, 0x6f, 0x6e,
  0x76, 0x65, 0x72, 0x74, 0x65, 0x64, 0x2e, 0x00, 0x01, 0x00, 0x00, 0x00,
  0x10, 0x00, 0x00, 0x00, 0x0c, 0x00, 0x14, 0x00, 0x04, 0x00, 0x08, 0x00,
  0x0c, 0x00, 0x10, 0x00, 0x0c, 0x00, 0x00, 0x00, 0x4c, 0x02, 0x00, 0x00,
  0x40, 0x02, 0x00, 0x00, 0x34, 0x02, 0x00, 0x00, 0x04, 0x00, 0x00, 0x00,
  0x07, 0x00, 0x00, 0x00, 0xd4, 0x01, 0x00, 0x00, 0x70, 0x01, 0x00, 0x00,
  0x24, 0x01, 0x00, 0x00, 0xc4, 0x00, 0x00, 0x00, 0x88, 0x00, 0x00, 0x00,
  0x40, 0x00, 0x00, 0x00, 0x04, 0x00, 0x00, 0x00, 0x56, 0xfe, 0xff, 0xff,
  0x00, 0x00, 0x00, 0x09, 0x04, 0x00, 0x00, 0x00, 0x24, 0x00, 0x00, 0x00,
  0x18, 0x00, 0x00, 0x00, 0x0c, 0x00, 0x00, 0x00, 0x00, 0x00, 0x06, 0x00,
  0x08, 0x00, 0x04, 0x00, 0x06, 0x00, 0x00, 0x00, 0x00, 0x00, 0x80, 0x3f,
  0x01, 0x00, 0x00, 0x00, 0x00, 0x00, 0x00, 0x00, 0x01, 0x00, 0x00, 0x00,
  0x0b, 0x00, 0x00, 0x00, 0xca, 0xff, 0xff, 0xff, 0x00, 0x00, 0x00, 0x08,
  0x02, 0x00, 0x00, 0x00, 0x18, 0x00, 0x00, 0x00, 0x0c, 0x00, 0x00, 0x00,
  0x04, 0x00, 0x00, 0x00, 0xf0, 0xf8, 0xff, 0xff, 0x01, 0x00, 0x00, 0x00,
  0x0b, 0x00, 0x00, 0x00, 0x03, 0x00, 0x00, 0x00, 0x0a, 0x00, 0x00, 0x00,
  0x0c, 0x00, 0x00, 0x00, 0x0d, 0x00, 0x00, 0x00, 0x00, 0x00, 0x0e, 0x00,
  0x18, 0x00, 0x08, 0x00, 0x0c, 0x00, 0x10, 0x00, 0x07, 0x00, 0x14, 0x00,
  0x0e, 0x00, 0x00, 0x00, 0x00, 0x00, 0x00, 0x08, 0x02, 0x00, 0x00, 0x00,
  0x1c, 0x00, 0x00, 0x00, 0x10, 0x00, 0x00, 0x00, 0x04, 0x00, 0x00, 0x00,
  0xf6, 0xf8, 0xff, 0xff, 0x00, 0x00, 0x00, 0x01, 0x01, 0x00, 0x00, 0x00,
  0x0a, 0x00, 0x00, 0x00, 0x03, 0x00, 0x00, 0x00, 0x0f, 0x00, 0x00, 0x00,
  0x08, 0x00, 0x00, 0x00, 0x09, 0x00, 0x00, 0x00, 0x0a, 0xff, 0xff, 0xff,
  0x00, 0x00, 0x00, 0x05, 0x03, 0x00, 0x00, 0x00, 0x38, 0x00, 0x00, 0x00,
  0x2c, 0x00, 0x00, 0x00, 0x14, 0x00, 0x00, 0x00, 0x00, 0x00, 0x0e, 0x00,
  0x14, 0x00, 0x00, 0x00, 0x04, 0x00, 0x08, 0x00, 0x0c, 0x00, 0x10, 0x00,
  0x0e, 0x00, 0x00, 0x00, 0x01, 0x00, 0x00, 0x00, 0x03, 0x00, 0x00, 0x00,
  0x01, 0x00, 0x00, 0x00, 0x03, 0x00, 0x00, 0x00, 0x01, 0x00, 0x00, 0x00,
  0x0f, 0x00, 0x00, 0x00, 0x01, 0x00, 0x00, 0x00, 0x07, 0x00, 0x00, 0x00,
  0x00, 0x00, 0x0e, 0x00, 0x14, 0x00, 0x00, 0x00, 0x08, 0x00, 0x0c, 0x00,
  0x07, 0x00, 0x10, 0x00, 0x0e, 0x00, 0x00, 0x00, 0x00, 0x00, 0x00, 0x01,
  0x30, 0x00, 0x00, 0x00, 0x24, 0x00, 0x00, 0x00, 0x10, 0x00, 0x00, 0x00,
  0x0c, 0x00, 0x10, 0x00, 0x00, 0x00, 0x08, 0x00, 0x0c, 0x00, 0x07, 0x00,
  0x0c, 0x00, 0x00, 0x00, 0x00, 0x00, 0x00, 0x01, 0x01, 0x00, 0x00, 0x00,
  0x01, 0x00, 0x00, 0x00, 0x01, 0x00, 0x00, 0x00, 0x07, 0x00, 0x00, 0x00,
  0x03, 0x00, 0x00, 0x00, 0x0e, 0x00, 0x00, 0x00, 0x05, 0x00, 0x00, 0x00,
  0x06, 0x00, 0x00, 0x00, 0xae, 0xff, 0xff, 0xff, 0x00, 0x00, 0x00, 0x05,
  0x03, 0x00, 0x00, 0x00, 0x3c, 0x00, 0x00, 0x00, 0x30, 0x00, 0x00, 0x00,
  0x14, 0x00, 0x00, 0x00, 0x00, 0x00, 0x0e, 0x00, 0x18, 0x00, 0x07, 0x00,
  0x08, 0x00, 0x0c, 0x00, 0x10, 0x00, 0x14, 0x00, 0x0e, 0x00, 0x00, 0x00,
  0x00, 0x00, 0x00, 0x01, 0x03, 0x00, 0x00, 0x00, 0x03, 0x00, 0x00, 0x00,
  0x03, 0x00, 0x00, 0x00, 0x03, 0x00, 0x00, 0x00, 0x01, 0x00, 0x00, 0x00,
  0x0e, 0x00, 0x00, 0x00, 0x01, 0x00, 0x00, 0x00, 0x04, 0x00, 0x00, 0x00,
  0x00, 0x00, 0x0e, 0x00, 0x1a, 0x00, 0x08, 0x00, 0x0c, 0x00, 0x10, 0x00,
  0x07, 0x00, 0x14, 0x00, 0x0e, 0x00, 0x00, 0x00, 0x00, 0x00, 0x00, 0x02,
  0x01, 0x00, 0x00, 0x00, 0x38, 0x00, 0x00, 0x00, 0x2c, 0x00, 0x00, 0x00,
  0x14, 0x00, 0x00, 0x00, 0x00, 0x00, 0x0e, 0x00, 0x14, 0x00, 0x00, 0x00,
  0x08, 0x00, 0x0c, 0x00, 0x10, 0x00, 0x07, 0x00, 0x0e, 0x00, 0x00, 0x00,
  0x00, 0x00, 0x00, 0x01, 0x01, 0x00, 0x00, 0x00, 0x01, 0x00, 0x00, 0x00,
  0x08, 0x00, 0x00, 0x00, 0x01, 0x00, 0x00, 0x00, 0x04, 0x00, 0x00, 0x00,
  0x03, 0x00, 0x00, 0x00, 0x01, 0x00, 0x00, 0x00, 0x02, 0x00, 0x00, 0x00,
  0x03, 0x00, 0x00, 0x00, 0x01, 0x00, 0x00, 0x00, 0x00, 0x00, 0x00, 0x00,
  0x01, 0x00, 0x00, 0x00, 0x01, 0x00, 0x00, 0x00, 0x10, 0x00, 0x00, 0x00,
  0x2c, 0x05, 0x00, 0x00, 0xb8, 0x04, 0x00, 0x00, 0x5c, 0x04, 0x00, 0x00,
  0x14, 0x04, 0x00, 0x00, 0xc8, 0x03, 0x00, 0x00, 0x68, 0x03, 0x00, 0x00,
  0x20, 0x03, 0x00, 0x00, 0xd0, 0x02, 0x00, 0x00, 0x40, 0x02, 0x00, 0x00,
  0xe8, 0x01, 0x00, 0x00, 0xa4, 0x01, 0x00, 0x00, 0x5c, 0x01, 0x00, 0x00,
  0xfc, 0x00, 0x00, 0x00, 0xb4, 0x00, 0x00, 0x00, 0x5c, 0x00, 0x00, 0x00,
  0x04, 0x00, 0x00, 0x00, 0x22, 0xfb, 0xff, 0xff, 0x3c, 0x00, 0x00, 0x00,
  0x0a, 0x00, 0x00, 0x00, 0x0c, 0x00, 0x00, 0x00, 0x04, 0x00, 0x00, 0x00,
  0x14, 0xfb, 0xff, 0xff, 0x22, 0x00, 0x00, 0x00, 0x73, 0x65, 0x71, 0x75,
  0x65, 0x6e, 0x74, 0x69, 0x61, 0x6c, 0x2f, 0x6d, 0x61, 0x78, 0x5f, 0x70,
  0x6f, 0x6f, 0x6c, 0x69, 0x6e, 0x67, 0x32, 0x64, 0x5f, 0x31, 0x2f, 0x4d,
  0x61, 0x78, 0x50, 0x6f, 0x6f, 0x6c, 0x00, 0x00, 0x04, 0x00, 0x00, 0x00,
  0x01, 0x00, 0x00, 0x00, 0x07, 0x00, 0x00, 0x00, 0x01, 0x00, 0x00, 0x00,
  0x10, 0x00, 0x00, 0x00, 0x76, 0xfb, 0xff, 0xff, 0x3c, 0x00, 0x00, 0x00,
  0x10, 0x00, 0x00, 0x00, 0x0c, 0x00, 0x00, 0x00, 0x04, 0x00, 0x00, 0x00,
  0x68, 0xfb, 0xff, 0xff, 0x20, 0x00, 0x00, 0x00, 0x73, 0x65, 0x71, 0x75,
  0x65, 0x6e, 0x74, 0x69, 0x61, 0x6c, 0x2f, 0x6d, 0x61, 0x78, 0x5f, 0x70,
  0x6f, 0x6f, 0x6c, 0x69, 0x6e, 0x67, 0x32, 0x64, 0x2f, 0x4d, 0x61, 0x78,
  0x50, 0x6f, 0x6f, 0x6c, 0x00, 0x00, 0x00, 0x00, 0x04, 0x00, 0x00, 0x00,
  0x01, 0x00, 0x00, 0x00, 0x15, 0x00, 0x00, 0x00, 0x01, 0x00, 0x00, 0x00,
  0x08, 0x00, 0x00, 0x00, 0xca, 0xfb, 0xff, 0xff, 0x38, 0x00, 0x00, 0x00,
  0x03, 0x00, 0x00, 0x00, 0x0c, 0x00, 0x00, 0x00, 0x04, 0x00, 0x00, 0x00,
  0xbc, 0xfb, 0xff, 0xff, 0x1e, 0x00, 0x00, 0x00, 0x73, 0x65, 0x71, 0x75,
  0x65, 0x6e, 0x74, 0x69, 0x61, 0x6c, 0x2f, 0x64, 0x65, 0x6e, 0x73, 0x65,
  0x5f, 0x31, 0x2f, 0x4d, 0x61, 0x74, 0x4d, 0x75, 0x6c, 0x5f, 0x62, 0x69,
  0x61, 0x73, 0x00, 0x00, 0x01, 0x00, 0x00, 0x00, 0x03, 0x00, 0x00, 0x00,
  0x0e, 0xfc, 0xff, 0xff, 0x4c, 0x00, 0x00, 0x00, 0x02, 0x00, 0x00, 0x00,
  0x0c, 0x00, 0x00, 0x00, 0x04, 0x00, 0x00, 0x00, 0x00, 0xfc, 0xff, 0xff,
  0x32, 0x00, 0x00, 0x00, 0x73, 0x65, 0x71, 0x75, 0x65, 0x6e, 0x74, 0x69,
  0x61, 0x6c, 0x2f, 0x64, 0x65, 0x6e, 0x73, 0x65, 0x5f, 0x31, 0x2f, 0x4d,
  0x61, 0x74, 0x4d, 0x75, 0x6c, 0x2f, 0x52, 0x65, 0x61, 0x64, 0x56, 0x61,
  0x72, 0x69, 0x61, 0x62, 0x6c, 0x65, 0x4f, 0x70, 0x2f, 0x74, 0x72, 0x61,
  0x6e, 0x73, 0x70, 0x6f, 0x73, 0x65, 0x00, 0x00, 0x02, 0x00, 0x00, 0x00,
  0x03, 0x00, 0x00, 0x00, 0x10, 0x00, 0x00, 0x00, 0x6a, 0xfc, 0xff, 0xff,
  0x34, 0x00, 0x00, 0x00, 0x08, 0x00, 0x00, 0x00, 0x0c, 0x00, 0x00, 0x00,
  0x04, 0x00, 0x00, 0x00, 0x5c, 0xfc, 0xff, 0xff, 0x1a, 0x00, 0x00, 0x00,
  0x73, 0x65, 0x71, 0x75, 0x65, 0x6e, 0x74, 0x69, 0x61, 0x6c, 0x2f, 0x64,
  0x65, 0x6e, 0x73, 0x65, 0x5f, 0x31, 0x2f, 0x42, 0x69, 0x61, 0x73, 0x41,
  0x64, 0x64, 0x00, 0x00, 0x02, 0x00, 0x00, 0x00, 0x01, 0x00, 0x00, 0x00,
  0x03, 0x00, 0x00, 0x00, 0xae, 0xfc, 0xff, 0xff, 0x30, 0x00, 0x00, 0x00,
  0x09, 0x00, 0x00, 0x00, 0x0c, 0x00, 0x00, 0x00, 0x04, 0x00, 0x00, 0x00,
  0xa0, 0xfc, 0xff, 0xff, 0x15, 0x00, 0x00, 0x00, 0x73, 0x65, 0x71, 0x75,
  0x65, 0x6e, 0x74, 0x69, 0x61, 0x6c, 0x2f, 0x64, 0x65, 0x6e, 0x73, 0x65,
  0x2f, 0x52, 0x65, 0x6c, 0x75, 0x00, 0x00, 0x00, 0x02, 0x00, 0x00, 0x00,
  0x01, 0x00, 0x00, 0x00, 0x10, 0x00, 0x00, 0x00, 0xee, 0xfc, 0xff, 0xff,
  0x38, 0x00, 0x00, 0x00, 0x01, 0x00, 0x00, 0x00, 0x0c, 0x00, 0x00, 0x00,
  0x04, 0x00, 0x00, 0x00, 0xe0, 0xfc, 0xff, 0xff, 0x1c, 0x00, 0x00, 0x00,
  0x73, 0x65, 0x71, 0x75, 0x65, 0x6e, 0x74, 0x69, 0x61, 0x6c, 0x2f, 0x64,
  0x65, 0x6e, 0x73, 0x65, 0x2f, 0x4d, 0x61, 0x74, 0x4d, 0x75, 0x6c, 0x5f,
  0x62, 0x69, 0x61, 0x73, 0x00, 0x00, 0x00, 0x00, 0x01, 0x00, 0x00, 0x00,
  0x10, 0x00, 0x00, 0x00, 0x00, 0x00, 0x0e, 0x00, 0x18, 0x00, 0x08, 0x00,
  0x07, 0x00, 0x0c, 0x00, 0x10, 0x00, 0x14, 0x00, 0x0e, 0x00, 0x00, 0x00,
  0x00, 0x00, 0x00, 0x09, 0x78, 0x00, 0x00, 0x00, 0x06, 0x00, 0x00, 0x00,
  0x38, 0x00, 0x00, 0x00, 0x10, 0x00, 0x00, 0x00, 0x0c, 0x00, 0x0c, 0x00,
  0x00, 0x00, 0x00, 0x00, 0x04, 0x00, 0x08, 0x00, 0x0c, 0x00, 0x00, 0x00,
  0x18, 0x00, 0x00, 0x00, 0x04, 0x00, 0x00, 0x00, 0x01, 0x00, 0x00, 0x00,
  0x00, 0x00, 0x00, 0x00, 0x00, 0x00, 0x00, 0x00, 0x00, 0x00, 0x00, 0x00,
  0x01, 0x00, 0x00, 0x00, 0xe7, 0xb1, 0x03, 0x3c, 0x30, 0x00, 0x00, 0x00,
  0x73, 0x65, 0x71, 0x75, 0x65, 0x6e, 0x74, 0x69, 0x61, 0x6c, 0x2f, 0x64,
  0x65, 0x6e, 0x73, 0x65, 0x2f, 0x4d, 0x61, 0x74, 0x4d, 0x75, 0x6c, 0x2f,
  0x52, 0x65, 0x61, 0x64, 0x56, 0x61, 0x72, 0x69, 0x61, 0x62, 0x6c, 0x65,
  0x4f, 0x70, 0x2f, 0x74, 0x72, 0x61, 0x6e, 0x73, 0x70, 0x6f, 0x73, 0x65,
  0x00, 0x00, 0x00, 0x00, 0x02, 0x00, 0x00, 0x00, 0x10, 0x00, 0x00, 0x00,
  0x70, 0x00, 0x00, 0x00, 0xce, 0xfd, 0xff, 0xff, 0x34, 0x00, 0x00, 0x00,
  0x0b, 0x00, 0x00, 0x00, 0x0c, 0x00, 0x00, 0x00, 0x04, 0x00, 0x00, 0x00,
  0xc0, 0xfd, 0xff, 0xff, 0x18, 0x00, 0x00, 0x00, 0x73, 0x65, 0x71, 0x75,
  0x65, 0x6e, 0x74, 0x69, 0x61, 0x6c, 0x2f, 0x63, 0x6f, 0x6e, 0x76, 0x32,
  0x64, 0x5f, 0x31, 0x2f, 0x52, 0x65, 0x6c, 0x75, 0x00, 0x00, 0x00, 0x00,
  0x04, 0x00, 0x00, 0x00, 0x01, 0x00, 0x00, 0x00, 0x15, 0x00, 0x00, 0x00,
  0x01, 0x00, 0x00, 0x00, 0x10, 0x00, 0x00, 0x00, 0x1a, 0xfe, 0xff, 0xff,
  0x38, 0x00, 0x00, 0x00, 0x04, 0x00, 0x00, 0x00, 0x0c, 0x00, 0x00, 0x00,
  0x04, 0x00, 0x00, 0x00, 0x0c, 0xfe, 0xff, 0xff, 0x1f, 0x00, 0x00, 0x00,
  0x73, 0x65, 0x71, 0x75, 0x65, 0x6e, 0x74, 0x69, 0x61, 0x6c, 0x2f, 0x63,
  0x6f, 0x6e, 0x76, 0x32, 0x64, 0x5f, 0x31, 0x2f, 0x43, 0x6f, 0x6e, 0x76,
  0x32, 0x44, 0x5f, 0x62, 0x69, 0x61, 0x73, 0x00, 0x01, 0x00, 0x00, 0x00,
  0x10, 0x00, 0x00, 0x00, 0x5e, 0xfe, 0xff, 0xff, 0x44, 0x00, 0x00, 0x00,
  0x0d, 0x00, 0x00, 0x00, 0x0c, 0x00, 0x00, 0x00, 0x04, 0x00, 0x00, 0x00,
  0x50, 0xfe, 0xff, 0xff, 0x29, 0x00, 0x00, 0x00, 0x73, 0x65, 0x71, 0x75,
  0x65, 0x6e, 0x74, 0x69, 0x61, 0x6c, 0x2f, 0x63, 0x6f, 0x6e, 0x76, 0x32,
  0x64, 0x5f, 0x31, 0x2f, 0x43, 0x6f, 0x6e, 0x76, 0x32, 0x44, 0x2f, 0x52,
  0x65, 0x61, 0x64, 0x56, 0x61, 0x72, 0x69, 0x61, 0x62, 0x6c, 0x65, 0x4f,
  0x70, 0x00, 0x00, 0x00, 0x04, 0x00, 0x00, 0x00, 0x10, 0x00, 0x00, 0x00,
  0x04, 0x00, 0x00, 0x00, 0x01, 0x00, 0x00, 0x00, 0x08, 0x00, 0x00, 0x00,
  0xba, 0xfe, 0xff, 0xff, 0x30, 0x00, 0x00, 0x00, 0x0f, 0x00, 0x00, 0x00,
  0x0c, 0x00, 0x00, 0x00, 0x04, 0x00, 0x00, 0x00, 0xac, 0xfe, 0xff, 0xff,
  0x16, 0x00, 0x00, 0x00, 0x73, 0x65, 0x71, 0x75, 0x65, 0x6e, 0x74, 0x69,
  0x61, 0x6c, 0x2f, 0x63, 0x6f, 0x6e, 0x76, 0x32, 0x64, 0x2f, 0x52, 0x65,
  0x6c, 0x75, 0x00, 0x00, 0x04, 0x00, 0x00, 0x00, 0x01, 0x00, 0x00, 0x00,
  0x40, 0x00, 0x00, 0x00, 0x03, 0x00, 0x00, 0x00, 0x08, 0x00, 0x00, 0x00,
  0x02, 0xff, 0xff, 0xff, 0x38, 0x00, 0x00, 0x00, 0x05, 0x00, 0x00, 0x00,
  0x0c, 0x00, 0x00, 0x00, 0x04, 0x00, 0x00, 0x00, 0xf4, 0xfe, 0xff, 0xff,
  0x1d, 0x00, 0x00, 0x00, 0x73, 0x65, 0x71, 0x75, 0x65, 0x6e, 0x74, 0x69,
  0x61, 0x6c, 0x2f, 0x63, 0x6f, 0x6e, 0x76, 0x32, 0x64, 0x2f, 0x43, 0x6f,
  0x6e, 0x76, 0x32, 0x44, 0x5f, 0x62, 0x69, 0x61, 0x73, 0x00, 0x00, 0x00,
  0x01, 0x00, 0x00, 0x00, 0x08, 0x00, 0x00, 0x00, 0x46, 0xff, 0xff, 0xff,
  0x40, 0x00, 0x00, 0x00, 0x0e, 0x00, 0x00, 0x00, 0x0c, 0x00, 0x00, 0x00,
  0x04, 0x00, 0x00, 0x00, 0x38, 0xff, 0xff, 0xff, 0x27, 0x00, 0x00, 0x00,
  0x73, 0x65, 0x71, 0x75, 0x65, 0x6e, 0x74, 0x69, 0x61, 0x6c, 0x2f, 0x63,
  0x6f, 0x6e, 0x76, 0x32, 0x64, 0x2f, 0x43, 0x6f, 0x6e, 0x76, 0x32, 0x44,
  0x2f, 0x52, 0x65, 0x61, 0x64, 0x56, 0x61, 0x72, 0x69, 0x61, 0x62, 0x6c,
  0x65, 0x4f, 0x70, 0x00, 0x04, 0x00, 0x00, 0x00, 0x01, 0x00, 0x00, 0x00,
  0x04, 0x00, 0x00, 0x00, 0x03, 0x00, 0x00, 0x00, 0x08, 0x00, 0x00, 0x00,
  0x9e, 0xff, 0xff, 0xff, 0x48, 0x00, 0x00, 0x00, 0x0c, 0x00, 0x00, 0x00,
  0x2c, 0x00, 0x00, 0x00, 0x0c, 0x00, 0x00, 0x00, 0x08, 0x00, 0x0c, 0x00,
  0x04, 0x00, 0x08, 0x00, 0x08, 0x00, 0x00, 0x00, 0x10, 0x00, 0x00, 0x00,
  0x04, 0x00, 0x00, 0x00, 0x01, 0x00, 0x00, 0x00, 0x00, 0x00, 0x7f, 0x43,
  0x01, 0x00, 0x00, 0x00, 0x00, 0x00, 0x00, 0x00, 0x0c, 0x00, 0x00, 0x00,
  0x63, 0x6f, 0x6e, 0x76, 0x32, 0x64, 0x5f, 0x69, 0x6e, 0x70, 0x75, 0x74,
  0x00, 0x00, 0x00, 0x00, 0x04, 0x00, 0x00, 0x00, 0x01, 0x00, 0x00, 0x00,
  0x40, 0x00, 0x00, 0x00, 0x03, 0x00, 0x00, 0x00, 0x01, 0x00, 0x00, 0x00,
  0x00, 0x00, 0x0e, 0x00, 0x14, 0x00, 0x04, 0x00, 0x00, 0x00, 0x08, 0x00,
  0x0c, 0x00, 0x10, 0x00, 0x0e, 0x00, 0x00, 0x00, 0x28, 0x00, 0x00, 0x00,
  0x07, 0x00, 0x00, 0x00, 0x10, 0x00, 0x00, 0x00, 0x08, 0x00, 0x00, 0x00,
  0x04, 0x00, 0x04, 0x00, 0x04, 0x00, 0x00, 0x00, 0x08, 0x00, 0x00, 0x00,
  0x49, 0x64, 0x65, 0x6e, 0x74, 0x69, 0x74, 0x79, 0x00, 0x00, 0x00, 0x00,
  0x02, 0x00, 0x00, 0x00, 0x01, 0x00, 0x00, 0x00, 0x03, 0x00, 0x00, 0x00,
  0x05, 0x00, 0x00, 0x00, 0x58, 0x00, 0x00, 0x00, 0x44, 0x00, 0x00, 0x00,
  0x2c, 0x00, 0x00, 0x00, 0x18, 0x00, 0x00, 0x00, 0x0c, 0x00, 0x00, 0x00,
  0x00, 0x00, 0x06, 0x00, 0x08, 0x00, 0x07, 0x00, 0x06, 0x00, 0x00, 0x00,
  0x00, 0x00, 0x00, 0x19, 0xe2, 0xff, 0xff, 0xff, 0x00, 0x11, 0x0a, 0x00,
  0x0e, 0x00, 0x07, 0x00, 0x00, 0x00, 0x08, 0x00, 0x0a, 0x00, 0x00, 0x00,
  0x00, 0x00, 0x00, 0x09, 0x03, 0x00, 0x00, 0x00, 0x00, 0x00, 0x06, 0x00,
  0x06, 0x00, 0x05, 0x00, 0x06, 0x00, 0x00, 0x00, 0x00, 0x04, 0x0a, 0x00,
  0x0c, 0x00, 0x07, 0x00, 0x00, 0x00, 0x08, 0x00, 0x0a, 0x00, 0x00, 0x00,
  0x00, 0x00, 0x00, 0x03, 0x02, 0x00, 0x00, 0x00
};
unsigned int _home_ee2405_ee2405_mbed07_model_model_quantized_tflite_len = 7040;
